<unk>	0
<s>	0
</s>	0
▁	-3.18983
.	-3.42652
09:00	-3.76325
+	-3.77948
T	-3.77948
▁보고	-3.78913
S	-3.81991
▁52	-3.82344
G	-3.82775
▁D	-3.82884
로	-3.87851
,	-3.87926
됨	-4.0616
이	-4.49439
▁2025-11-0	-4.55744
▁중	-4.65265
으	-4.65861
▁사격	-4.81365
중	-4.91146
/	-5.02401
▁현	-5.08547
▁2025-11-1	-5.11963
약	-5.12105
는	-5.22047
시간	-5.22621
에	-5.23443
(	-5.24088
)	-5.24088
에서	-5.24203
발	-5.24913
가	-5.25916
▁상태	-5.27234
km	-5.31213
▁관측	-5.32498
▁확인	-5.3349
1	-5.33563
▁표적	-5.39311
▁요청	-5.40029
▁이동	-5.42883
재	-5.4968
h	-5.56254
▁기준	-5.57016
▁장애물	-5.62125
▁적	-5.6847
▁평가	-5.69345
2	-5.70095
인	-5.70623
▁중임	-5.73221
▁상황	-5.7622
되어	-5.77468
표	-5.78108
좌	-5.78113
이며	-5.79259
0	-5.80033
▁식별	-5.81084
▁지속	-5.83528
m	-5.83752
▁1	-5.858
보	-5.86904
▁관찰	-5.89355
6	-5.89803
▁속도	-5.89888
첩	-5.90339
단	-5.90791
▁2025-11-	-5.91811
▁포착	-5.93615
5	-5.95223
▁판	-5.95975
4	-5.96128
9	-5.96634
3	-5.97393
장	-5.98151
극	-5.98463
복	-5.98463
▁2025-10-3	-5.99216
된	-6.00361
▁화력	-6.00652
▁대	-6.00881
▁예상	-6.02591
▁부대	-6.03659
▁내	-6.04032
▁2	-6.04396
▁방향	-6.05342
▁3	-6.05505
피해	-6.07314
포	-6.08981
의	-6.11709
▁부근	-6.12342
전투	-6.12662
▁아군	-6.13055
고	-6.13289
해	-6.13406
4:00	-6.13578
5:00	-6.14079
▁일대에서	-6.14653
7	-6.14799
6:00	-6.15355
7:00	-6.15523
3:00	-6.16457
1:00	-6.16677
8:00	-6.17119
2:00	-6.1714
시	-6.17202
▁28	-6.19682
8	-6.20487
▁보고됨	-6.21682
▁교전	-6.23624
▁방	-6.25291
▁추정	-6.26407
▁전개	-6.26476
▁부근에서	-6.26762
▁결과	-6.27205
9:00	-6.29529
상	-6.32475
과	-6.33301
▁위치	-6.3359
하	-6.33617
탄	-6.34021
낙	-6.34053
▁작전지역	-6.34859
▁집	-6.35423
평가	-6.36009
▁현황	-6.3746
분	-6.3807
▁수	-6.39312
기	-6.39316
%	-6.41444
P	-6.41444
0:00	-6.41572
▁효력	-6.41605
부대	-6.42512
▁배치	-6.43494
▁지역	-6.43721
면	-6.45876
행	-6.47423
문	-6.48109
▁공병	-6.48547
계	-6.48984
속	-6.50852
개	-6.52865
수	-6.5333
▁전진	-6.5363
량	-6.53856
▁것	-6.57029
결	-6.59951
▁공격	-6.60064
련	-6.60088
및	-6.61301
▁유지	-6.61718
▁규모	-6.63536
되며	-6.64197
'	-6.65584
도	-6.67323
▁4	-6.67471
▁위	-6.70582
여단	-6.70758
▁이동중	-6.71189
▁진	-6.71239
▁관	-6.71427
여	-6.72099
▁타격	-6.74922
▁인사상황	-6.75914
▁'	-6.76042
임	-6.76163
한	-6.77606
협	-6.77613
▁경	-6.7805
▁효	-6.78688
음	-6.79222
▁5	-6.80094
지	-6.8103
▁구역	-6.81681
▁통과	-6.81706
자	-6.82018
분경	-6.82067
▁거리	-6.82159
화	-6.82289
되었	-6.83101
▁6	-6.83136
▁수행	-6.83419
은	-6.86261
▁구역에서	-6.86708
▁후	-6.86786
▁정황	-6.88887
구	-6.89173
▁기록	-6.89962
대	-6.90337
mm	-6.90463
▁투입	-6.92704
▁존재	-6.93265
손	-6.93682
여단이	-6.94446
▁길이	-6.94665
▁M	-6.9493
편	-6.95479
▁세력	-6.95524
▁기	-6.96174
▁예정	-6.96674
을	-6.99469
태세	-7.00541
▁인근	-7.03592
형	-7.03725
상황	-7.04826
▁확보	-7.05547
보호	-7.05755
무	-7.06844
▁조치	-7.07824
▁270	-7.08169
▁흔적	-7.08319
▁폭파	-7.0832
총	-7.09488
▁작전	-7.09601
▁추	-7.0969
O	-7.10814
▁단위	-7.11014
▁277	-7.11426
▁상	-7.11532
▁점검	-7.11624
▁완료됨	-7.11742
▁임	-7.11867
▁273	-7.11923
▁시행	-7.12362
정보	-7.12697
성	-7.1282
가능	-7.13749
조치	-7.13904
▁279	-7.14809
▁8	-7.1486
▁군	-7.15128
▁264	-7.15775
▁287	-7.16073
▁267	-7.16482
▁근처	-7.18578
▁안정적	-7.18606
▁9	-7.18781
용	-7.19078
▁주변	-7.19301
▁전력	-7.19301
방공	-7.19371
▁283	-7.1961
▁보급	-7.2025
▁269	-7.21151
군	-7.21447
▁완료	-7.22134
▁분석	-7.22246
▁10	-7.22462
▁266	-7.22893
▁지뢰	-7.23058
▁미	-7.23577
▁276	-7.24077
수송	-7.24425
▁278	-7.25009
지원	-7.25152
▁소	-7.2543
▁282	-7.26345
▁280	-7.27108
▁필요	-7.27618
▁290	-7.28681
▁의	-7.28931
지점	-7.29091
자주포	-7.29336
▁292	-7.2953
▁박	-7.30196
▁안전	-7.30822
▁탄착	-7.30826
▁2025-11-2	-7.30937
동	-7.31355
율	-7.31501
▁294	-7.32115
▁271	-7.32953
▁7	-7.33632
▁일대	-7.34014
▁정리	-7.34978
▁268	-7.34979
▁포병여단	-7.35076
▁275	-7.36664
▁소대	-7.36787
▁291	-7.37034
격	-7.37355
있	-7.37709
▁265	-7.37748
▁293	-7.38073
▁272	-7.38074
▁남동	-7.38461
▁도	-7.3881
위	-7.39652
▁함	-7.39694
▁285	-7.39708
▁981	-7.39803
▁군단	-7.3981
▁소대이	-7.40422
▁분대	-7.40825
▁952	-7.4092
▁단	-7.41137
▁폭	-7.41606
▁955	-7.42506
근	-7.42717
▁288	-7.4276
를	-7.43708
출	-7.43708
획	-7.43708
기상	-7.43753
▁접	-7.43805
▁소요	-7.44799
M	-7.45983
▁동	-7.46107
▁계	-7.46742
▁973	-7.46822
▁정보	-7.47099
▁985	-7.47103
▁연대	-7.47522
▁970	-7.4826
▁북동	-7.48689
▁956	-7.49061
활	-7.49433
▁지휘통제	-7.49822
▁979	-7.5042
274	-7.50532
▁945	-7.50635
▁북	-7.51318
본	-7.51416
KM	-7.51452
▁고도	-7.5158
▁978	-7.51772
▁반	-7.52546
▁분류	-7.5256
▁대인지뢰	-7.52589
▁지뢰지대	-7.52589
▁대전차구	-7.52672
▁975	-7.52748
▁미확인	-7.53162
헬	-7.5344
▁959	-7.54751
▁965	-7.54822
▁중대이	-7.55207
▁징후	-7.55642
▁977	-7.5578
폭	-7.55807
▁966	-7.55809
▁968	-7.5588
▁980	-7.559
▁944	-7.56115
284	-7.56536
비태세	-7.56537
▁983	-7.56556
▁기동	-7.5659
▁972	-7.57305
▁155	-7.57714
▁967	-7.57904
▁남서	-7.58109
▁보	-7.58122
▁준	-7.58153
▁대대이	-7.58163
▁969	-7.58255
▁남	-7.58313
▁971	-7.58441
급	-7.58455
▁976	-7.59347
▁실	-7.59396
▁948	-7.59609
▁961	-7.60226
▁984	-7.60454
▁대대	-7.60649
▁방벽	-7.61
▁957	-7.61133
▁951	-7.63616
▁서	-7.6396
▁986	-7.64529
▁964	-7.6492
▁960	-7.65118
▁974	-7.65331
학	-7.65367
핵	-7.65367
▁절차	-7.65503
▁947	-7.65624
보병	-7.66427
▁946	-7.67135
▁사단	-7.67375
득	-7.67698
▁대전차	-7.67983
▁963	-7.68012
▁보호	-7.68711
▁954	-7.68805
▁958	-7.69161
전차	-7.70366
▁병력	-7.71433
▁중대	-7.71815
규모	-7.71994
▁950	-7.7222
▁우	-7.7233
▁12	-7.72441
281	-7.7247
▁돌파대대	-7.7279
물	-7.73168
▁파악됨	-7.73169
▁953	-7.73254
신	-7.73619
축	-7.73772
▁북서	-7.73953
▁차	-7.73962
▁연	-7.74207
▁발	-7.75929
▁주	-7.76471
▁철조망지대	-7.7648
소	-7.76536
사단	-7.76799
▁982	-7.78441
야	-7.78913
▁부근에	-7.78914
▁제거	-7.79052
정	-7.80157
▁구간	-7.81092
무력화	-7.81585
▁수준	-7.81775
▁11	-7.81822
견	-7.82038
▁적용	-7.8233
▁962	-7.82629
▁949	-7.82709
방어	-7.83879
충	-7.84332
▁하달	-7.84474
▁권	-7.84772
운	-7.84797
:00	-7.85447
▁여단	-7.85712
달	-7.85724
회	-7.85733
색	-7.87155
▁구역에	-7.8721
▁16	-7.87429
▁2025-10-2	-7.88646
▁개통	-7.88731
사단이	-7.88799
▁발령	-7.93187
각	-7.94584
퇴	-7.94584
파괴	-7.96139
▁공병대	-7.96311
▁정	-7.96841
개시	-7.97057
쪽	-7.97476
·	-7.97718
▁인사	-7.97781
▁기병중대	-7.97879
▁확인되어	-7.98664
K	-7.99805
-	-7.99863
▁전	-8.00394
:	-8.00433
▁14	-8.0139
비중	-8.02459
▁지침	-8.02742
▁목표	-8.04427
▁보유	-8.04428
차	-8.04647
불	-8.04863
▁20	-8.0528
제압	-8.0601
W	-8.0601
렬	-8.0601
11	-8.07443
효력없음	-8.07754
▁대비태세	-8.08314
▁23	-8.08441
▁L	-8.08967
▁비	-8.09115
▁17	-8.09406
▁돌파	-8.09517
▁기갑대대	-8.09715
▁차단	-8.10046
준비	-8.11301
▁장비	-8.11474
▁DEFCON	-8.13349
▁정찰	-8.14104
▁15	-8.14569
▁통	-8.14693
진	-8.1518
통제	-8.15382
▁내에	-8.16141
R	-8.16322
▁요	-8.18106
▁19	-8.18626
할	-8.18911
적	-8.20315
▁따	-8.20991
▁미식별	-8.21069
▁27	-8.21116
▁18	-8.21514
▁포대	-8.22276
착	-8.2287
▁기타	-8.23054
훈	-8.26188
▁29	-8.26802
다	-8.27098
검	-8.27106
세	-8.27106
토	-8.27107
▁C	-8.28595
즉	-8.29265
▁파	-8.29582
▁정상	-8.29666
선	-8.31471
특	-8.31471
▁비행연대	-8.31627
▁제	-8.33161
▁21	-8.33187
09	-8.33624
▁잔	-8.33817
▁13	-8.35143
▁26	-8.36144
▁전환	-8.36161
르	-8.38397
▁지휘	-8.38498
▁고사	-8.38533
▁업무복귀	-8.39071
▁일대에	-8.39868
07	-8.40578
▁실종	-8.41371
▁병	-8.42189
스트	-8.43304
▁형성	-8.43437
14:5	-8.43647
▁22	-8.44409
▁30	-8.4521
강	-8.45872
▁24	-8.48322
▁사	-8.49262
18:2	-8.49375
며	-8.49907
02	-8.50624
화생방	-8.51126
▁경로	-8.51285
▁편성	-8.51298
▁이동하	-8.52229
▁분	-8.52481
▁105	-8.52897
10:2	-8.53644
스	-8.53869
x	-8.53878
07:4	-8.54159
12:5	-8.54257
▁사망	-8.54301
▁판정됨	-8.54345
▁접수	-8.54436
17:3	-8.55162
▁175	-8.5527
▁포	-8.55513
▁25	-8.55915
사	-8.56306
55	-8.56875
02:4	-8.57077
03	-8.57235
▁시설	-8.57328
08	-8.57839
09:	-8.58875
어	-8.59111
건	-8.59612
19:5	-8.60073
23:3	-8.60888
03:5	-8.61057
09:5	-8.61131
▁항공	-8.61333
04	-8.61449
15:4	-8.61976
L	-8.62566
로켓	-8.62621
제	-8.62803
16:3	-8.62917
22:4	-8.62944
18:3	-8.62951
13:3	-8.62995
16:5	-8.63002
▁재고	-8.63002
05:2	-8.63392
06	-8.63563
07:5	-8.6402
28	-8.64031
▁시	-8.64089
▁조	-8.6444
▁기준에	-8.64926
22:1	-8.65345
치	-8.65553
존	-8.65694
네	-8.65714
▁과다	-8.65848
▁부상	-8.65993
06:3	-8.66058
▁탄약	-8.66146
05:5	-8.66257
결과	-8.66415
요	-8.66938
조	-8.66963
공	-8.67706
25	-8.67732
17:2	-8.6791
13:2	-8.68866
습	-8.68906
▁안정	-8.68994
▁유류	-8.69026
22:3	-8.69223
19:4	-8.69285
03:4	-8.69306
19:2	-8.69866
미확인	-8.69867
▁130	-8.70126
21:4	-8.70359
04:5	-8.70465
▁중상	-8.70542
20:1	-8.71283
01:1	-8.71579
15:2	-8.71659
▁평	-8.71856
02:0	-8.72172
균	-8.72203
험	-8.72204
▁부족	-8.72322
23:5	-8.7259
13	-8.72638
00:5	-8.72684
길이	-8.73077
관	-8.73302
05:1	-8.73386
함	-8.73607
01:4	-8.7377
▁44	-8.75288
02:2	-8.75528
막	-8.75613
▁흐름	-8.75731
20:3	-8.75985
00:3	-8.75995
19:3	-8.75995
04:4	-8.75998
11:3	-8.76005
11:4	-8.77201
06:0	-8.77266
▁물	-8.77304
10:00	-8.78069
04:3	-8.78328
03:2	-8.78612
종	-8.79087
료	-8.79142
08:1	-8.79144
08:2	-8.7918
▁부근에서에	-8.79316
23:4	-8.79493
08:4	-8.79561
18:5	-8.79613
05:4	-8.7962
경	-8.79673
03:1	-8.80607
17:1	-8.80716
21:3	-8.8073
05:3	-8.80801
09:3	-8.80829
18:1	-8.81351
00:1	-8.82088
설	-8.82567
11:0	-8.82652
매	-8.82801
크	-8.82802
20:4	-8.83217
21:5	-8.83302
01:5	-8.83376
10:5	-8.83401
▁45	-8.84384
▁38	-8.84423
16:4	-8.84434
14:4	-8.84467
20:5	-8.84552
15:5	-8.84662
▁47	-8.85137
18:00	-8.85543
06:4	-8.85757
14:2	-8.85977
12:2	-8.86334
갑	-8.86353
▁바람	-8.86714
▁77	-8.87311
▁구역에서에	-8.87514
07:1	-8.87836
14:1	-8.88184
10:4	-8.88387
17:5	-8.88511
22:2	-8.88784
박	-8.88873
16:0	-8.88887
13:0	-8.89712
04:1	-8.89814
업	-8.90547
▁작	-8.90623
▁교	-8.90623
▁31	-8.90668
▁하사	-8.90675
13:00	-8.90944
14:3	-8.90969
03:3	-8.91039
12:4	-8.91039
13:4	-8.91066
21:1	-8.9142
23	-8.9148
공병	-8.92339
5°	-8.92592
09:4	-8.92716
06:1	-8.92727
▁34	-8.92893
▁파악	-8.93132
▁33	-8.93652
13:1	-8.93667
11:5	-8.93915
지역	-8.94108
17	-8.94266
▁48	-8.94516
▁팀	-8.94734
▁체계	-8.9477
12:3	-8.95137
20	-8.95145
01:2	-8.95202
11:2	-8.9554
01:0	-8.96058
19:0	-8.96086
08:0	-8.96551
▁40	-8.96574
▁53	-8.96624
13:5	-8.96824
03:0	-8.97105
20:2	-8.97307
접	-8.97811
15:00	-8.9783
3°	-8.97929
▁강	-8.97993
17:4	-8.98073
04:0	-8.98101
19:1	-8.98245
▁39	-8.98254
시설	-8.98264
06:2	-8.98298
부	-8.98784
09:2	-8.98786
풍	-8.98943
▁양호	-8.99064
▁경향	-8.99103
15:3	-8.99446
▁구	-8.99463
▁36	-8.9947
00:4	-8.9947
10:3	-8.99475
▁37	-8.99728
16:00	-9.00395
16:2	-9.00524
▁포병	-9.00541
17:0	-9.01127
15:0	-9.01174
▁49	-9.01284
12	-9.01743
°	-9.02655
14:00	-9.02711
23:2	-9.02742
▁43	-9.02869
호	-9.03049
27	-9.03353
께	-9.03422
움	-9.03422
직	-9.03422
엄	-9.03422
▁0.	-9.03506
▁기류	-9.03537
09:0	-9.03657
▁상사	-9.03711
08:3	-9.0394
▁8.	-9.03972
06:5	-9.04125
15:1	-9.0417
23:00	-9.04632
▁58	-9.05037
▁56	-9.05082
▁73	-9.05145
05:0	-9.05187
12:0	-9.05232
16	-9.06087
집	-9.06237
▁59	-9.06367
1°	-9.0645
▁70	-9.06526
10:1	-9.06722
▁54	-9.07447
00:0	-9.07676
되	-9.07742
▁46	-9.0776
B	-9.0811
N	-9.0811
댐	-9.0811
품	-9.0811
02:1	-9.08489
18:4	-9.08663
08:5	-9.08876
▁67	-9.08981
17:	-9.09377
07:0	-9.09443
05	-9.09799
▁63	-9.10674
21:0	-9.1142
04:2	-9.11501
05:	-9.11594
20:0	-9.12283
▁35	-9.12452
02:3	-9.13678
10	-9.13739
▁지역에	-9.15185
01:3	-9.15365
22:5	-9.15408
▁65	-9.16045
00:2	-9.1631
15:	-9.16394
▁범위	-9.16463
▁41	-9.16538
라	-9.18202
▁노드	-9.18307
▁식량	-9.18307
▁준위	-9.18579
07:3	-9.18728
▁지	-9.19461
29	-9.20572
11:00	-9.2097
08:	-9.21119
▁32	-9.21223
10:0	-9.2137
병기	-9.21389
11:1	-9.2157
86	-9.21832
01:	-9.22057
서	-9.22156
21:00	-9.22207
▁42	-9.22336
▁57	-9.22722
19:	-9.23002
02:	-9.23564
하늘	-9.23575
12:	-9.2364
I	-9.23658
▁양	-9.23713
22:00	-9.23734
▁전반	-9.23765
10:	-9.23827
▁중위	-9.24478
02:5	-9.24572
12:1	-9.25356
▁4.	-9.25883
▁74	-9.26405
21:2	-9.27442
00:	-9.28229
피	-9.29216
트	-9.2941
영	-9.29429
카	-9.2943
미	-9.29503
14	-9.2967
일	-9.31002
26	-9.31734
7°	-9.31896
22:0	-9.32197
13:	-9.33187
▁64	-9.34904
6°	-9.35422
▁지휘통제본부	-9.35691
23:1	-9.35745
▁이병	-9.35831
14:	-9.36513
21:	-9.37874
18	-9.38092
18:0	-9.38321
▁85	-9.3841
20:00	-9.38589
▁2025-10-	-9.39159
07:00	-9.39953
17:00	-9.40009
▁강우	-9.42186
▁강설	-9.42196
9°	-9.42255
52	-9.42319
▁상병	-9.42454
▁작전사령부	-9.4257
03:	-9.42774
18:	-9.4291
06:	-9.43676
▁6.	-9.43733
현	-9.43836
기동	-9.44179
15	-9.4435
▁79	-9.45139
▁68	-9.45152
기갑	-9.45232
07:2	-9.45344
04:	-9.45408
05:00	-9.46018
20:	-9.46648
▁인	-9.46792
0°	-9.46961
▁82	-9.47939
▁50	-9.48092
점	-9.48853
거	-9.49031
▁흐	-9.49113
▁소령	-9.49148
▁태풍	-9.49148
▁우박	-9.49235
우	-9.49867
16:	-9.51381
▁장	-9.51512
▁80	-9.52076
11:	-9.52263
24	-9.52316
▁69	-9.53194
▁72	-9.54273
▁9.	-9.55449
89	-9.55936
▁76	-9.56051
00	-9.56514
22	-9.56999
▁무	-9.57092
▁지속되	-9.57117
▁병장	-9.57439
서연	-9.57796
▁권역	-9.57912
07:	-9.58802
▁51	-9.59375
23:	-9.59719
▁일대에서에	-9.59801
▁중사	-9.6007
▁83	-9.61016
16:1	-9.61726
23:0	-9.61806
▁0	-9.62803
8°	-9.63092
▁119	-9.63381
▁99	-9.64057
▁일병	-9.64774
지민	-9.64848
▁소위	-9.65495
▁55	-9.6698
22:	-9.67161
C	-9.6731
실	-9.6748
▁78	-9.68614
04:00	-9.68814
01:00	-9.70157
▁66	-9.71702
▁75	-9.7206
징	-9.735
드	-9.73501
▁1.	-9.7459
▁대위	-9.76185
구간	-9.76939
항공	-9.7751
▁7.	-9.77964
21	-9.78622
▁104	-9.7914
병	-9.79682
향	-9.82871
▁107	-9.82973
▁60	-9.83166
비	-9.84484
▁3.	-9.86708
2°	-9.86922
09:1	-9.87297
▁111	-9.89058
▁106	-9.89597
포병	-9.90074
서현	-9.90605
03:00	-9.9121
▁편	-9.91836
▁92	-9.92107
06:00	-9.92273
▁84	-9.92343
▁87	-9.93277
14:0	-9.93764
입	-9.93907
정보통신	-9.93907
▁중령	-9.93975
현우	-9.9401
▁격상	-9.94097
▁유	-9.9422
4°	-9.94444
▁전방지역	-9.9562
▁93	-9.9595
=2	-9.96716
74	-9.97805
01	-9.9798
▁5.	-9.9877
대이	-9.98864
▁96	-9.9908
▁97	-9.99709
정찰	-9.99774
▁108	-9.99792
▁71	-10.0006
19:00	-10.0031
▁95	-10.0078
▁178	-10.0082
예은	-10.0189
▁일	-10.0244
▁안	-10.059
=3	-10.0672
민수	-10.0708
▁88	-10.0777
▁109	-10.0787
▁90	-10.1251
윤서	-10.1638
▁103	-10.1689
▁81	-10.1785
02:00	-10.1867
▁작전사령부에	-10.1888
유진	-10.1958
건우	-10.1962
은우	-10.198
▁145	-10.2001
▁148	-10.2005
▁160	-10.208
31	-10.2088
▁62	-10.2114
▁173	-10.2163
▁61	-10.2192
▁윤	-10.2381
▁94	-10.24
46	-10.2442
▁98	-10.2449
▁100	-10.267
▁기갑	-10.2857
84	-10.2993
▁86	-10.3
08:00	-10.3232
▁전방지역에	-10.3306
▁91	-10.3364
보고	-10.3531
81	-10.3532
도윤	-10.3532
▁046°	-10.3547
▁117	-10.356
▁북서쪽	-10.3595
시우	-10.3598
▁북쪽	-10.3602
=4	-10.3839
▁169	-10.3881
▁132	-10.4007
▁120	-10.4044
▁범위에	-10.4165
19	-10.4201
95	-10.4411
▁08	-10.469
예진	-10.473
30	-10.4878
▁153	-10.49
▁129	-10.5175
▁124	-10.5232
▁이	-10.5255
47	-10.5271
지우	-10.5347
▁남쪽	-10.5486
▁남동쪽	-10.5499
=5	-10.5586
68	-10.5721
하준	-10.5735
▁736	-10.583
중상	-10.5902
▁89	-10.6163
97	-10.6258
지훈	-10.6354
12°	-10.6735
지휘통제	-10.6782
▁102	-10.686
D	-10.6921
=1	-10.7008
업무복귀	-10.7029
보급	-10.7039
▁122	-10.7203
▁07	-10.7257
44°	-10.7319
▁140	-10.7363
▁157	-10.7388
민지	-10.748
▁118	-10.7506
▁송	-10.7624
48°	-10.773
▁757	-10.7967
▁476	-10.8014
▁신	-10.8198
▁여	-10.8369
▁114	-10.837
2025-11-0	-10.8397
43	-10.8405
▁171	-10.8469
33	-10.848
73	-10.864
▁123	-10.8783
▁135	-10.882
=6	-10.8874
▁화	-10.901
38	-10.9041
64	-10.9064
▁154	-10.9077
▁112	-10.9309
▁125	-10.9364
▁115	-10.9495
▁2.	-10.9539
▁185	-10.959
58	-10.9613
94	-10.986
실종	-11.0041
54	-11.0078
권역	-11.0167
▁337	-11.042
▁247	-11.0627
▁161	-11.0631
▁138	-11.0719
▁류도윤	-11.0757
▁안하준	-11.0757
▁084°	-11.0758
▁강지우	-11.0759
▁013°	-11.076
▁075°	-11.0761
▁172°	-11.0769
▁임하준	-11.0769
▁서예은	-11.077
▁190°	-11.0776
▁317°	-11.0777
서쪽	-11.0777
▁243°	-11.0788
▁박하늘	-11.0801
▁344	-11.0893
▁1564	-11.0926
▁259	-11.0963
▁187	-11.0991
▁448	-11.1008
▁동쪽	-11.1024
▁151	-11.1029
=25	-11.1059
▁류	-11.1069
=7	-11.11
▁614	-11.1112
▁03	-11.1171
정됨	-11.1208
▁332	-11.1231
▁179	-11.1298
▁580	-11.1357
▁357	-11.136
▁162	-11.1381
=12	-11.1383
▁170	-11.1429
83	-11.1457
▁152	-11.1459
▁134	-11.1473
준	-11.1654
▁193	-11.1668
▁139	-11.1687
▁149	-11.1691
31°	-11.1721
▁146	-11.1722
35	-11.1775
49	-11.1862
▁180	-11.2012
▁515	-11.202
48	-11.2026
▁101	-11.2102
98	-11.2205
▁296	-11.2231
76	-11.2255
▁황	-11.2274
▁133	-11.2327
▁602	-11.2452
▁214	-11.2465
32	-11.249
▁517	-11.2603
88	-11.2628
▁798	-11.2635
▁507	-11.272
▁강예	-11.2976
▁694	-11.3078
▁110	-11.3139
▁01	-11.3175
=	-11.3274
▁159	-11.3412
▁760	-11.3481
79	-11.3494
56	-11.3498
▁210	-11.3498
54°	-11.3624
93	-11.3696
7/4	-11.3702
▁677	-11.3707
▁575	-11.3792
77	-11.3808
▁345	-11.3866
▁176	-11.3874
41	-11.4156
59°	-11.4166
▁142	-11.419
사망	-11.4311
사격	-11.4316
16°	-11.4342
2025-11-1	-11.4392
▁411	-11.4392
▁한	-11.443
▁326	-11.4731
63	-11.4884
03°	-11.4937
962	-11.4989
978	-11.5022
73°	-11.5049
▁626/	-11.5104
▁040°	-11.5104
▁092°	-11.5104
▁010°	-11.5104
▁094°	-11.5104
▁안현우	-11.5104
▁윤하늘	-11.5105
▁056°	-11.5106
▁조지훈	-11.5106
▁088°	-11.5106
▁059°	-11.5107
▁조은우	-11.5109
▁한하늘	-11.511
▁전지우	-11.5111
▁한민수	-11.5112
▁전현우	-11.512
▁윤지원	-11.5122
▁336°	-11.5124
▁이도윤	-11.5125
▁307°	-11.5125
▁140°	-11.5129
▁146°	-11.5133
▁354°	-11.5138
▁5592	-11.5141
▁219°	-11.5142
▁180°	-11.5149
▁627	-11.5153
▁108°	-11.5154
▁129°	-11.5158
▁312°	-11.5165
▁116°	-11.5172
▁244°	-11.52
80	-11.5238
▁182	-11.5238
▁1180	-11.5258
▁291°	-11.5259
▁559	-11.5263
09°	-11.5268
▁265°	-11.5273
▁121	-11.5289
▁242	-11.5289
▁882	-11.5304
▁348	-11.5342
▁765	-11.5349
983	-11.5353
67	-11.5371
▁319	-11.5372
=29	-11.5374
▁556	-11.5404
=44	-11.5416
▁716	-11.5456
▁623	-11.5458
▁543	-11.5479
▁424	-11.5536
▁721	-11.5552
▁334	-11.5584
▁616	-11.5591
▁624	-11.5601
▁690	-11.5608
▁641	-11.5635
▁937	-11.5643
▁705	-11.5646
▁383	-11.5655
51	-11.5669
▁667	-11.5676
▁594	-11.5679
▁426	-11.5679
▁163	-11.5685
=14	-11.5715
▁489	-11.5729
▁248	-11.5748
36	-11.5767
▁863	-11.5772
▁황예	-11.5829
▁604	-11.584
▁808	-11.5852
758	-11.5885
▁455	-11.5888
▁571	-11.5893
▁777	-11.5926
▁570	-11.5947
▁714	-11.5991
▁465	-11.6038
▁480	-11.604
▁156	-11.605
▁321	-11.6066
▁301	-11.6141
277	-11.6145
▁186	-11.6146
▁906	-11.618
968	-11.6227
▁246	-11.6326
▁송예	-11.6334
▁194	-11.6367
50	-11.6404
65	-11.643
▁221	-11.6444
▁636	-11.6449
▁144	-11.6496
▁649	-11.6598
▁113	-11.6662
/3	-11.6752
78	-11.6781
▁126	-11.6958
894	-11.7183
▁1222	-11.719
733	-11.7219
37	-11.734
▁263	-11.7384
▁1174	-11.7387
▁116	-11.7396
▁652	-11.7427
격중	-11.7428
1532	-11.7613
1315	-11.7844
597	-11.7972
▁805	-11.8061
▁공	-11.8131
▁638	-11.823
근에	-11.8264
8/3	-11.8299
60/1	-11.8344
▁195	-11.8384
확인	-11.8423
▁141	-11.847
▁황지	-11.8475
▁05	-11.8502
7/3	-11.8584
39	-11.8697
99°	-11.8893
▁136	-11.8919
▁윤서	-11.8928
▁06	-11.895
87	-11.9018
=10	-11.9088
=60	-11.9164
▁202	-11.9343
상태	-11.9409
▁309	-11.9469
▁143	-11.9515
▁1390	-11.956
17°	-11.9606
53	-11.962
▁418	-11.9726
054	-11.9763
61°	-11.9882
71	-11.9918
13°	-11.9994
관측	-12.0012
▁732	-12.0173
▁483	-12.038
30°	-12.0497
276	-12.0545
743	-12.0719
표적	-12.0797
147	-12.0834
19°	-12.0852
273	-12.0867
요청	-12.088
▁137	-12.09
267	-12.0908
69	-12.1161
42	-12.1178
이동	-12.1212
56°	-12.1221
▁127	-12.1311
288	-12.1424
264	-12.1427
70	-12.1515
▁181	-12.1644
271	-12.1699
황	-12.1725
87°	-12.1767
282	-12.1795
=9	-12.1804
285	-12.1837
40	-12.1864
▁790	-12.1921
▁457	-12.1996
979	-12.2048
장애물	-12.2087
982	-12.225
▁신지	-12.2354
664	-12.2356
▁가	-12.2438
944	-12.2466
29°	-12.2526
174	-12.2657
45	-12.2683
85	-12.2711
▁353	-12.2737
▁300	-12.2794
▁349	-12.2871
기준	-12.288
34	-12.3013
492	-12.3114
▁128	-12.3148
1787	-12.323
▁318	-12.3282
75	-12.3287
44	-12.3335
▁460	-12.3343
▁158	-12.3427
454	-12.3507
72	-12.3527
2025-11-	-12.3541
대에	-12.3651
458	-12.3723
▁354	-12.3939
980	-12.4209
85°	-12.4259
▁208	-12.4259
2025-10-3	-12.4355
91	-12.448
식별	-12.4506
▁199	-12.4544
951	-12.461
▁256	-12.4802
▁196	-12.4807
중임	-12.4842
▁183	-12.4854
5/4	-12.4968
▁243	-12.5042
▁236	-12.5201
▁316	-12.5267
▁317	-12.5307
▁04	-12.5438
▁298	-12.5791
20°	-12.5857
60	-12.5869
02°	-12.5964
673	-12.5967
지속	-12.6126
163	-12.6239
▁한민	-12.6309
82	-12.6321
▁222	-12.6462
154	-12.6586
▁131	-12.6791
관찰	-12.6866
속도	-12.6934
293	-12.6999
43°	-12.7156
80°	-12.7354
포착	-12.7419
▁150	-12.7629
22°	-12.7753
일대에서	-12.7778
59	-12.7843
787	-12.8056
▁320	-12.8154
▁796	-12.8185
화력	-12.8331
▁윤지	-12.8445
예상	-12.8587
88°	-12.8782
947	-12.8818
836	-12.8821
75°	-12.8845
114	-12.8894
방향	-12.8952
795	-12.9321
960	-12.9322
부근에서	-12.9381
보고됨	-12.9541
▁591	-12.9777
156	-12.9813
부근	-12.9897
아군	-12.9993
▁231	-13.019
99	-13.0364
580	-13.0442
작전지역	-13.0483
243	-13.0545
92	-13.0609
57	-13.0835
134	-13.1358
교전	-13.1461
판	-13.1621
대대이	-13.1626
105	-13.1802
349	-13.1841
전개	-13.1866
추정	-13.1888
27°	-13.2009
▁311	-13.2068
효력	-13.2274
90°	-13.2501
473	-13.2756
내	-13.2815
66	-13.2893
위치	-13.2895
07°	-13.3116
984	-13.3154
현황	-13.3466
▁324	-13.3535
▁262	-13.389
/4	-13.393
624	-13.3931
373	-13.402
방	-13.4365
배치	-13.4374
36°	-13.4489
연	-13.7953
후	-13.9498
것	-14.1502
송	-14.405
효	-14.4226
전	-14.663
노	-15.1693
팀	-15.1694
체	-15.1695
범	-15.1696
늘	-15.1697
바	-15.1698
람	-15.1699
민	-15.17
름	-15.1701
족	-15.1702
윤	-15.1703
켓	-15.1704
생	-15.1705
양	-15.1706
흐	-15.1707
환	-15.1708
항	-15.1709
잔	-15.171
귀	-15.1711
따	-15.1712
F	-15.1713
E	-15.1714
없	-15.1715
압	-15.1716
목	-15.1717
침	-15.1718
괴	-15.1719
철	-15.172
절	-15.1721
권	-15.1722
벽	-15.1723
악	-15.1724
령	-15.1725
망	-15.1726
반	-15.1727
필	-15.1728
원	-15.1729
석	-15.173
돌	-15.1731
변	-15.1732
처	-15.1733
능	-15.1734
흔	-15.1735
류	-15.1736
휘	-15.1737
록	-15.1738
었	-15.1739
길	-15.174
타	-15.1741
완	-15.1742
배	-15.1743
북	-15.1744
안	-15.1745
남	-15.1746
리	-15.1747
모	-15.1748
규	-15.1749
뢰	-15.175
주	-15.1751
유	-15.1752
교	-15.1753
아	-15.1754
추	-15.1755
파	-15.1756
통	-15.1757
작	-15.1758
찰	-15.1759
투	-15.176
별	-15.1761
식	-15.1762
예	-15.1763
애	-15.1764
청	-15.1765
측	-15.1766
k	-15.1767
평	-15.1768
간	-15.1769
역	-15.177
확	-15.1771
태	-15.1772
력	-15.1773
