{"<PAD>": 0, "<UNK>": 1, "<NUM>": 2, "<unk>": 3, "<s>": 4, "</s>": 5, "▁": 6, ".": 7, "09:00": 8, "+": 9, "T": 10, "▁보고": 11, "S": 12, "▁52": 13, "G": 14, "▁D": 15, "로": 16, ",": 17, "됨": 18, "이": 19, "▁2025-11-0": 20, "▁중": 21, "으": 22, "▁사격": 23, "중": 24, "/": 25, "▁현": 26, "▁2025-11-1": 27, "약": 28, "는": 29, "시간": 30, "에": 31, "(": 32, ")": 33, "에서": 34, "발": 35, "가": 36, "▁상태": 37, "km": 38, "▁관측": 39, "▁확인": 40, "1": 41, "▁표적": 42, "▁요청": 43, "▁이동": 44, "재": 45, "h": 46, "▁기준": 47, "▁장애물": 48, "▁적": 49, "▁평가": 50, "2": 51, "인": 52, "▁중임": 53, "▁상황": 54, "되어": 55, "표": 56, "좌": 57, "이며": 58, "0": 59, "▁식별": 60, "▁지속": 61, "m": 62, "▁1": 63, "보": 64, "▁관찰": 65, "6": 66, "▁속도": 67, "첩": 68, "단": 69, "▁2025-11-": 70, "▁포착": 71, "5": 72, "▁판": 73, "4": 74, "9": 75, "3": 76, "장": 77, "극": 78, "복": 79, "▁2025-10-3": 80, "된": 81, "▁화력": 82, "▁대": 83, "▁예상": 84, "▁부대": 85, "▁내": 86, "▁2": 87, "▁방향": 88, "▁3": 89, "피해": 90, "포": 91, "의": 92, "▁부근": 93, "전투": 94, "▁아군": 95, "고": 96, "해": 97, "4:00": 98, "5:00": 99, "▁일대에서": 100, "7": 101, "6:00": 102, "7:00": 103, "3:00": 104, "1:00": 105, "8:00": 106, "2:00": 107, "시": 108, "▁28": 109, "8": 110, "▁보고됨": 111, "▁교전": 112, "▁방": 113, "▁추정": 114, "▁전개": 115, "▁부근에서": 116, "▁결과": 117, "9:00": 118, "상": 119, "과": 120, "▁위치": 121, "하": 122, "탄": 123, "낙": 124, "▁작전지역": 125, "▁집": 126, "평가": 127, "▁현황": 128, "분": 129, "▁수": 130, "기": 131, "%": 132, "P": 133, "0:00": 134, "▁효력": 135, "부대": 136, "▁배치": 137, "▁지역": 138, "면": 139, "행": 140, "문": 141, "▁공병": 142, "계": 143, "속": 144, "개": 145, "수": 146, "▁전진": 147, "량": 148, "▁것": 149, "결": 150, "▁공격": 151, "련": 152, "및": 153, "▁유지": 154, "▁규모": 155, "되며": 156, "'": 157, "도": 158, "▁4": 159, "▁위": 160, "여단": 161, "▁이동중": 162, "▁진": 163, "▁관": 164, "여": 165, "▁타격": 166, "▁인사상황": 167, "▁'": 168, "임": 169, "한": 170, "협": 171, "▁경": 172, "▁효": 173, "음": 174, "▁5": 175, "지": 176, "▁구역": 177, "▁통과": 178, "자": 179, "분경": 180, "▁거리": 181, "화": 182, "되었": 183, "▁6": 184, "▁수행": 185, "은": 186, "▁구역에서": 187, "▁후": 188, "▁정황": 189, "구": 190, "▁기록": 191, "대": 192, "mm": 193, "▁투입": 194, "▁존재": 195, "손": 196, "여단이": 197, "▁길이": 198, "▁M": 199, "편": 200, "▁세력": 201, "▁기": 202, "▁예정": 203, "을": 204, "태세": 205, "▁인근": 206, "형": 207, "상황": 208, "▁확보": 209, "보호": 210, "무": 211, "▁조치": 212, "▁270": 213, "▁흔적": 214, "▁폭파": 215, "총": 216, "▁작전": 217, "▁추": 218, "O": 219, "▁단위": 220, "▁277": 221, "▁상": 222, "▁점검": 223, "▁완료됨": 224, "▁임": 225, "▁273": 226, "▁시행": 227, "정보": 228, "성": 229, "가능": 230, "조치": 231, "▁279": 232, "▁8": 233, "▁군": 234, "▁264": 235, "▁287": 236, "▁267": 237, "▁근처": 238, "▁안정적": 239, "▁9": 240, "용": 241, "▁주변": 242, "▁전력": 243, "방공": 244, "▁283": 245, "▁보급": 246, "▁269": 247, "군": 248, "▁완료": 249, "▁분석": 250, "▁10": 251, "▁266": 252, "▁지뢰": 253, "▁미": 254, "▁276": 255, "수송": 256, "▁278": 257, "지원": 258, "▁소": 259, "▁282": 260, "▁280": 261, "▁필요": 262, "▁290": 263, "▁의": 264, "지점": 265, "자주포": 266, "▁292": 267, "▁박": 268, "▁안전": 269, "▁탄착": 270, "▁2025-11-2": 271, "동": 272, "율": 273, "▁294": 274, "▁271": 275, "▁7": 276, "▁일대": 277, "▁정리": 278, "▁268": 279, "▁포병여단": 280, "▁275": 281, "▁소대": 282, "▁291": 283, "격": 284, "있": 285, "▁265": 286, "▁293": 287, "▁272": 288, "▁남동": 289, "▁도": 290, "위": 291, "▁함": 292, "▁285": 293, "▁981": 294, "▁군단": 295, "▁소대이": 296, "▁분대": 297, "▁952": 298, "▁단": 299, "▁폭": 300, "▁955": 301, "근": 302, "▁288": 303, "를": 304, "출": 305, "획": 306, "기상": 307, "▁접": 308, "▁소요": 309, "M": 310, "▁동": 311, "▁계": 312, "▁973": 313, "▁정보": 314, "▁985": 315, "▁연대": 316, "▁970": 317, "▁북동": 318, "▁956": 319, "활": 320, "▁지휘통제": 321, "▁979": 322, "274": 323, "▁945": 324, "▁북": 325, "본": 326, "KM": 327, "▁고도": 328, "▁978": 329, "▁반": 330, "▁분류": 331, "▁대인지뢰": 332, "▁지뢰지대": 333, "▁대전차구": 334, "▁975": 335, "▁미확인": 336, "헬": 337, "▁959": 338, "▁965": 339, "▁중대이": 340, "▁징후": 341, "▁977": 342, "폭": 343, "▁966": 344, "▁968": 345, "▁980": 346, "▁944": 347, "284": 348, "비태세": 349, "▁983": 350, "▁기동": 351, "▁972": 352, "▁155": 353, "▁967": 354, "▁남서": 355, "▁보": 356, "▁준": 357, "▁대대이": 358, "▁969": 359, "▁남": 360, "▁971": 361, "급": 362, "▁976": 363, "▁실": 364, "▁948": 365, "▁961": 366, "▁984": 367, "▁대대": 368, "▁방벽": 369, "▁957": 370, "▁951": 371, "▁서": 372, "▁986": 373, "▁964": 374, "▁960": 375, "▁974": 376, "학": 377, "핵": 378, "▁절차": 379, "▁947": 380, "보병": 381, "▁946": 382, "▁사단": 383, "득": 384, "▁대전차": 385, "▁963": 386, "▁보호": 387, "▁954": 388, "▁958": 389, "전차": 390, "▁병력": 391, "▁중대": 392, "규모": 393, "▁950": 394, "▁우": 395, "▁12": 396, "281": 397, "▁돌파대대": 398, "물": 399, "▁파악됨": 400, "▁953": 401, "신": 402, "축": 403, "▁북서": 404, "▁차": 405, "▁연": 406, "▁발": 407, "▁주": 408, "▁철조망지대": 409, "소": 410, "사단": 411, "▁982": 412, "야": 413, "▁부근에": 414, "▁제거": 415, "정": 416, "▁구간": 417, "무력화": 418, "▁수준": 419, "▁11": 420, "견": 421, "▁적용": 422, "▁962": 423, "▁949": 424, "방어": 425, "충": 426, "▁하달": 427, "▁권": 428, "운": 429, ":00": 430, "▁여단": 431, "달": 432, "회": 433, "색": 434, "▁구역에": 435, "▁16": 436, "▁2025-10-2": 437, "▁개통": 438, "사단이": 439, "▁발령": 440, "각": 441, "퇴": 442, "파괴": 443, "▁공병대": 444, "▁정": 445, "개시": 446, "쪽": 447, "·": 448, "▁인사": 449, "▁기병중대": 450, "▁확인되어": 451, "K": 452, "-": 453, "▁전": 454, ":": 455, "▁14": 456, "비중": 457, "▁지침": 458, "▁목표": 459, "▁보유": 460, "차": 461, "불": 462, "▁20": 463, "제압": 464, "W": 465, "렬": 466, "11": 467, "효력없음": 468, "▁대비태세": 469, "▁23": 470, "▁L": 471, "▁비": 472, "▁17": 473, "▁돌파": 474, "▁기갑대대": 475, "▁차단": 476, "준비": 477, "▁장비": 478, "▁DEFCON": 479, "▁정찰": 480, "▁15": 481, "▁통": 482, "진": 483, "통제": 484, "▁내에": 485, "R": 486, "▁요": 487, "▁19": 488, "할": 489, "적": 490, "▁따": 491, "▁미식별": 492, "▁27": 493, "▁18": 494, "▁포대": 495, "착": 496, "▁기타": 497, "훈": 498, "▁29": 499, "다": 500, "검": 501, "세": 502, "토": 503, "▁C": 504, "즉": 505, "▁파": 506, "▁정상": 507, "선": 508, "특": 509, "▁비행연대": 510, "▁제": 511, "▁21": 512, "09": 513, "▁잔": 514, "▁13": 515, "▁26": 516, "▁전환": 517, "르": 518, "▁지휘": 519, "▁고사": 520, "▁업무복귀": 521, "▁일대에": 522, "07": 523, "▁실종": 524, "▁병": 525, "스트": 526, "▁형성": 527, "14:5": 528, "▁22": 529, "▁30": 530, "강": 531, "▁24": 532, "▁사": 533, "18:2": 534, "며": 535, "02": 536, "화생방": 537, "▁경로": 538, "▁편성": 539, "▁이동하": 540, "▁분": 541, "▁105": 542, "10:2": 543, "스": 544, "x": 545, "07:4": 546, "12:5": 547, "▁사망": 548, "▁판정됨": 549, "▁접수": 550, "17:3": 551, "▁175": 552, "▁포": 553, "▁25": 554, "사": 555, "55": 556, "02:4": 557, "03": 558, "▁시설": 559, "08": 560, "09:": 561, "어": 562, "건": 563, "19:5": 564, "23:3": 565, "03:5": 566, "09:5": 567, "▁항공": 568, "04": 569, "15:4": 570, "L": 571, "로켓": 572, "제": 573, "16:3": 574, "22:4": 575, "18:3": 576, "13:3": 577, "16:5": 578, "▁재고": 579, "05:2": 580, "06": 581, "07:5": 582, "28": 583, "▁시": 584, "▁조": 585, "▁기준에": 586, "22:1": 587, "치": 588, "존": 589, "네": 590, "▁과다": 591, "▁부상": 592, "06:3": 593, "▁탄약": 594, "05:5": 595, "결과": 596, "요": 597, "조": 598, "공": 599, "25": 600, "17:2": 601, "13:2": 602, "습": 603, "▁안정": 604, "▁유류": 605, "22:3": 606, "19:4": 607, "03:4": 608, "19:2": 609, "미확인": 610, "▁130": 611, "21:4": 612, "04:5": 613, "▁중상": 614, "20:1": 615, "01:1": 616, "15:2": 617, "▁평": 618, "02:0": 619, "균": 620, "험": 621, "▁부족": 622, "23:5": 623, "13": 624, "00:5": 625, "길이": 626, "관": 627, "05:1": 628, "함": 629, "01:4": 630, "▁44": 631, "02:2": 632, "막": 633, "▁흐름": 634, "20:3": 635, "00:3": 636, "19:3": 637, "04:4": 638, "11:3": 639, "11:4": 640, "06:0": 641, "▁물": 642, "10:00": 643, "04:3": 644, "03:2": 645, "종": 646, "료": 647, "08:1": 648, "08:2": 649, "▁부근에서에": 650, "23:4": 651, "08:4": 652, "18:5": 653, "05:4": 654, "경": 655, "03:1": 656, "17:1": 657, "21:3": 658, "05:3": 659, "09:3": 660, "18:1": 661, "00:1": 662, "설": 663, "11:0": 664, "매": 665, "크": 666, "20:4": 667, "21:5": 668, "01:5": 669, "10:5": 670, "▁45": 671, "▁38": 672, "16:4": 673, "14:4": 674, "20:5": 675, "15:5": 676, "▁47": 677, "18:00": 678, "06:4": 679, "14:2": 680, "12:2": 681, "갑": 682, "▁바람": 683, "▁77": 684, "▁구역에서에": 685, "07:1": 686, "14:1": 687, "10:4": 688, "17:5": 689, "22:2": 690, "박": 691, "16:0": 692, "13:0": 693, "04:1": 694, "업": 695, "▁작": 696, "▁교": 697, "▁31": 698, "▁하사": 699, "13:00": 700, "14:3": 701, "03:3": 702, "12:4": 703, "13:4": 704, "21:1": 705, "23": 706, "공병": 707, "5°": 708, "09:4": 709, "06:1": 710, "▁34": 711, "▁파악": 712, "▁33": 713, "13:1": 714, "11:5": 715, "지역": 716, "17": 717, "▁48": 718, "▁팀": 719, "▁체계": 720, "12:3": 721, "20": 722, "01:2": 723, "11:2": 724, "01:0": 725, "19:0": 726, "08:0": 727, "▁40": 728, "▁53": 729, "13:5": 730, "03:0": 731, "20:2": 732, "접": 733, "15:00": 734, "3°": 735, "▁강": 736, "17:4": 737, "04:0": 738, "19:1": 739, "▁39": 740, "시설": 741, "06:2": 742, "부": 743, "09:2": 744, "풍": 745, "▁양호": 746, "▁경향": 747, "15:3": 748, "▁구": 749, "▁36": 750, "00:4": 751, "10:3": 752, "▁37": 753, "16:00": 754, "16:2": 755, "▁포병": 756, "17:0": 757, "15:0": 758, "▁49": 759, "12": 760, "°": 761, "14:00": 762, "23:2": 763, "▁43": 764, "호": 765, "27": 766, "께": 767, "움": 768, "직": 769, "엄": 770, "▁0.": 771, "▁기류": 772, "09:0": 773, "▁상사": 774, "08:3": 775, "▁8.": 776, "06:5": 777, "15:1": 778, "23:00": 779, "▁58": 780, "▁56": 781, "▁73": 782, "05:0": 783, "12:0": 784, "16": 785, "집": 786, "▁59": 787, "1°": 788, "▁70": 789, "10:1": 790, "▁54": 791, "00:0": 792, "되": 793, "▁46": 794, "B": 795, "N": 796, "댐": 797, "품": 798, "02:1": 799, "18:4": 800, "08:5": 801, "▁67": 802, "17:": 803, "07:0": 804, "05": 805, "▁63": 806, "21:0": 807, "04:2": 808, "05:": 809, "20:0": 810, "▁35": 811, "02:3": 812, "10": 813, "▁지역에": 814, "01:3": 815, "22:5": 816, "▁65": 817, "00:2": 818, "15:": 819, "▁범위": 820, "▁41": 821, "라": 822, "▁노드": 823, "▁식량": 824, "▁준위": 825, "07:3": 826, "▁지": 827, "29": 828, "11:00": 829, "08:": 830, "▁32": 831, "10:0": 832, "병기": 833, "11:1": 834, "86": 835, "01:": 836, "서": 837, "21:00": 838, "▁42": 839, "▁57": 840, "19:": 841, "02:": 842, "하늘": 843, "12:": 844, "I": 845, "▁양": 846, "22:00": 847, "▁전반": 848, "10:": 849, "▁중위": 850, "02:5": 851, "12:1": 852, "▁4.": 853, "▁74": 854, "21:2": 855, "00:": 856, "피": 857, "트": 858, "영": 859, "카": 860, "미": 861, "14": 862, "일": 863, "26": 864, "7°": 865, "22:0": 866, "13:": 867, "▁64": 868, "6°": 869, "▁지휘통제본부": 870, "23:1": 871, "▁이병": 872, "14:": 873, "21:": 874, "18": 875, "18:0": 876, "▁85": 877, "20:00": 878, "▁2025-10-": 879, "07:00": 880, "17:00": 881, "▁강우": 882, "▁강설": 883, "9°": 884, "52": 885, "▁상병": 886, "▁작전사령부": 887, "03:": 888, "18:": 889, "06:": 890, "▁6.": 891, "현": 892, "기동": 893, "15": 894, "▁79": 895, "▁68": 896, "기갑": 897, "07:2": 898, "04:": 899, "05:00": 900, "20:": 901, "▁인": 902, "0°": 903, "▁82": 904, "▁50": 905, "점": 906, "거": 907, "▁흐": 908, "▁소령": 909, "▁태풍": 910, "▁우박": 911, "우": 912, "16:": 913, "▁장": 914, "▁80": 915, "11:": 916, "24": 917, "▁69": 918, "▁72": 919, "▁9.": 920, "89": 921, "▁76": 922, "00": 923, "22": 924, "▁무": 925, "▁지속되": 926, "▁병장": 927, "서연": 928, "▁권역": 929, "07:": 930, "▁51": 931, "23:": 932, "▁일대에서에": 933, "▁중사": 934, "▁83": 935, "16:1": 936, "23:0": 937, "▁0": 938, "8°": 939, "▁119": 940, "▁99": 941, "▁일병": 942, "지민": 943, "▁소위": 944, "▁55": 945, "22:": 946, "C": 947, "실": 948, "▁78": 949, "04:00": 950, "01:00": 951, "▁66": 952, "▁75": 953, "징": 954, "드": 955, "▁1.": 956, "▁대위": 957, "구간": 958, "항공": 959, "▁7.": 960, "21": 961, "▁104": 962, "병": 963, "향": 964, "▁107": 965, "▁60": 966, "비": 967, "▁3.": 968, "2°": 969, "09:1": 970, "▁111": 971, "▁106": 972, "포병": 973, "서현": 974, "03:00": 975, "▁편": 976, "▁92": 977, "06:00": 978, "▁84": 979, "▁87": 980, "14:0": 981, "입": 982, "정보통신": 983, "▁중령": 984, "현우": 985, "▁격상": 986, "▁유": 987, "4°": 988, "▁전방지역": 989, "▁93": 990, "=2": 991, "74": 992, "01": 993, "▁5.": 994, "대이": 995, "▁96": 996, "▁97": 997, "정찰": 998, "▁108": 999, "▁71": 1000, "19:00": 1001, "▁95": 1002, "▁178": 1003, "예은": 1004, "▁일": 1005, "▁안": 1006, "=3": 1007, "민수": 1008, "▁88": 1009, "▁109": 1010, "▁90": 1011, "윤서": 1012, "▁103": 1013, "▁81": 1014, "02:00": 1015, "▁작전사령부에": 1016, "유진": 1017, "건우": 1018, "은우": 1019, "▁145": 1020, "▁148": 1021, "▁160": 1022, "31": 1023, "▁62": 1024, "▁173": 1025, "▁61": 1026, "▁윤": 1027, "▁94": 1028, "46": 1029, "▁98": 1030, "▁100": 1031, "▁기갑": 1032, "84": 1033, "▁86": 1034, "08:00": 1035, "▁전방지역에": 1036, "▁91": 1037, "보고": 1038, "81": 1039, "도윤": 1040, "▁046°": 1041, "▁117": 1042, "▁북서쪽": 1043, "시우": 1044, "▁북쪽": 1045, "=4": 1046, "▁169": 1047, "▁132": 1048, "▁120": 1049, "▁범위에": 1050, "19": 1051, "95": 1052, "▁08": 1053, "예진": 1054, "30": 1055, "▁153": 1056, "▁129": 1057, "▁124": 1058, "▁이": 1059, "47": 1060, "지우": 1061, "▁남쪽": 1062, "▁남동쪽": 1063, "=5": 1064, "68": 1065, "하준": 1066, "▁736": 1067, "중상": 1068, "▁89": 1069, "97": 1070, "지훈": 1071, "12°": 1072, "지휘통제": 1073, "▁102": 1074, "D": 1075, "=1": 1076, "업무복귀": 1077, "보급": 1078, "▁122": 1079, "▁07": 1080, "44°": 1081, "▁140": 1082, "▁157": 1083, "민지": 1084, "▁118": 1085, "▁송": 1086, "48°": 1087, "▁757": 1088, "▁476": 1089, "▁신": 1090, "▁여": 1091, "▁114": 1092, "2025-11-0": 1093, "43": 1094, "▁171": 1095, "33": 1096, "73": 1097, "▁123": 1098, "▁135": 1099, "=6": 1100, "▁화": 1101, "38": 1102, "64": 1103, "▁154": 1104, "▁112": 1105, "▁125": 1106, "▁115": 1107, "▁2.": 1108, "▁185": 1109, "58": 1110, "94": 1111, "실종": 1112, "54": 1113, "권역": 1114, "▁337": 1115, "▁247": 1116, "▁161": 1117, "▁138": 1118, "▁류도윤": 1119, "▁안하준": 1120, "▁084°": 1121, "▁강지우": 1122, "▁013°": 1123, "▁075°": 1124, "▁172°": 1125, "▁임하준": 1126, "▁서예은": 1127, "▁190°": 1128, "▁317°": 1129, "서쪽": 1130, "▁243°": 1131, "▁박하늘": 1132, "▁344": 1133, "▁1564": 1134, "▁259": 1135, "▁187": 1136, "▁448": 1137, "▁동쪽": 1138, "▁151": 1139, "=25": 1140, "▁류": 1141, "=7": 1142, "▁614": 1143, "▁03": 1144, "정됨": 1145, "▁332": 1146, "▁179": 1147, "▁580": 1148, "▁357": 1149, "▁162": 1150, "=12": 1151, "▁170": 1152, "83": 1153, "▁152": 1154, "▁134": 1155, "준": 1156, "▁193": 1157, "▁139": 1158, "▁149": 1159, "31°": 1160, "▁146": 1161, "35": 1162, "49": 1163, "▁180": 1164, "▁515": 1165, "48": 1166, "▁101": 1167, "98": 1168, "▁296": 1169, "76": 1170, "▁황": 1171, "▁133": 1172, "▁602": 1173, "▁214": 1174, "32": 1175, "▁517": 1176, "88": 1177, "▁798": 1178, "▁507": 1179, "▁강예": 1180, "▁694": 1181, "▁110": 1182, "▁01": 1183, "=": 1184, "▁159": 1185, "▁760": 1186, "79": 1187, "56": 1188, "▁210": 1189, "54°": 1190, "93": 1191, "7/4": 1192, "▁677": 1193, "▁575": 1194, "77": 1195, "▁345": 1196, "▁176": 1197, "41": 1198, "59°": 1199, "▁142": 1200, "사망": 1201, "사격": 1202, "16°": 1203, "2025-11-1": 1204, "▁411": 1205, "▁한": 1206, "▁326": 1207, "63": 1208, "03°": 1209, "962": 1210, "978": 1211, "73°": 1212, "▁626/": 1213, "▁040°": 1214, "▁092°": 1215, "▁010°": 1216, "▁094°": 1217, "▁안현우": 1218, "▁윤하늘": 1219, "▁056°": 1220, "▁조지훈": 1221, "▁088°": 1222, "▁059°": 1223, "▁조은우": 1224, "▁한하늘": 1225, "▁전지우": 1226, "▁한민수": 1227, "▁전현우": 1228, "▁윤지원": 1229, "▁336°": 1230, "▁이도윤": 1231, "▁307°": 1232, "▁140°": 1233, "▁146°": 1234, "▁354°": 1235, "▁5592": 1236, "▁219°": 1237, "▁180°": 1238, "▁627": 1239, "▁108°": 1240, "▁129°": 1241, "▁312°": 1242, "▁116°": 1243, "▁244°": 1244, "80": 1245, "▁182": 1246, "▁1180": 1247, "▁291°": 1248, "▁559": 1249, "09°": 1250, "▁265°": 1251, "▁121": 1252, "▁242": 1253, "▁882": 1254, "▁348": 1255, "▁765": 1256, "983": 1257, "67": 1258, "▁319": 1259, "=29": 1260, "▁556": 1261, "=44": 1262, "▁716": 1263, "▁623": 1264, "▁543": 1265, "▁424": 1266, "▁721": 1267, "▁334": 1268, "▁616": 1269, "▁624": 1270, "▁690": 1271, "▁641": 1272, "▁937": 1273, "▁705": 1274, "▁383": 1275, "51": 1276, "▁667": 1277, "▁594": 1278, "▁426": 1279, "▁163": 1280, "=14": 1281, "▁489": 1282, "▁248": 1283, "36": 1284, "▁863": 1285, "▁황예": 1286, "▁604": 1287, "▁808": 1288, "758": 1289, "▁455": 1290, "▁571": 1291, "▁777": 1292, "▁570": 1293, "▁714": 1294, "▁465": 1295, "▁480": 1296, "▁156": 1297, "▁321": 1298, "▁301": 1299, "277": 1300, "▁186": 1301, "▁906": 1302, "968": 1303, "▁246": 1304, "▁송예": 1305, "▁194": 1306, "50": 1307, "65": 1308, "▁221": 1309, "▁636": 1310, "▁144": 1311, "▁649": 1312, "▁113": 1313, "/3": 1314, "78": 1315, "▁126": 1316, "894": 1317, "▁1222": 1318, "733": 1319, "37": 1320, "▁263": 1321, "▁1174": 1322, "▁116": 1323, "▁652": 1324, "격중": 1325, "1532": 1326, "1315": 1327, "597": 1328, "▁805": 1329, "▁공": 1330, "▁638": 1331, "근에": 1332, "8/3": 1333, "60/1": 1334, "▁195": 1335, "확인": 1336, "▁141": 1337, "▁황지": 1338, "▁05": 1339, "7/3": 1340, "39": 1341, "99°": 1342, "▁136": 1343, "▁윤서": 1344, "▁06": 1345, "87": 1346, "=10": 1347, "=60": 1348, "▁202": 1349, "상태": 1350, "▁309": 1351, "▁143": 1352, "▁1390": 1353, "17°": 1354, "53": 1355, "▁418": 1356, "054": 1357, "61°": 1358, "71": 1359, "13°": 1360, "관측": 1361, "▁732": 1362, "▁483": 1363, "30°": 1364, "276": 1365, "743": 1366, "표적": 1367, "147": 1368, "19°": 1369, "273": 1370, "요청": 1371, "▁137": 1372, "267": 1373, "69": 1374, "42": 1375, "이동": 1376, "56°": 1377, "▁127": 1378, "288": 1379, "264": 1380, "70": 1381, "▁181": 1382, "271": 1383, "황": 1384, "87°": 1385, "282": 1386, "=9": 1387, "285": 1388, "40": 1389, "▁790": 1390, "▁457": 1391, "979": 1392, "장애물": 1393, "982": 1394, "▁신지": 1395, "664": 1396, "▁가": 1397, "944": 1398, "29°": 1399, "174": 1400, "45": 1401, "85": 1402, "▁353": 1403, "▁300": 1404, "▁349": 1405, "기준": 1406, "34": 1407, "492": 1408, "▁128": 1409, "1787": 1410, "▁318": 1411, "75": 1412, "44": 1413, "▁460": 1414, "▁158": 1415, "454": 1416, "72": 1417, "2025-11-": 1418, "대에": 1419, "458": 1420, "▁354": 1421, "980": 1422, "85°": 1423, "▁208": 1424, "2025-10-3": 1425, "91": 1426, "식별": 1427, "▁199": 1428, "951": 1429, "▁256": 1430, "▁196": 1431, "중임": 1432, "▁183": 1433, "5/4": 1434, "▁243": 1435, "▁236": 1436, "▁316": 1437, "▁317": 1438, "▁04": 1439, "▁298": 1440, "20°": 1441, "60": 1442, "02°": 1443, "673": 1444, "지속": 1445, "163": 1446, "▁한민": 1447, "82": 1448, "▁222": 1449, "154": 1450, "▁131": 1451, "관찰": 1452, "속도": 1453, "293": 1454, "43°": 1455, "80°": 1456, "포착": 1457, "▁150": 1458, "22°": 1459, "일대에서": 1460, "59": 1461, "787": 1462, "▁320": 1463, "▁796": 1464, "화력": 1465, "▁윤지": 1466, "예상": 1467, "88°": 1468, "947": 1469, "836": 1470, "75°": 1471, "114": 1472, "방향": 1473, "795": 1474, "960": 1475, "부근에서": 1476, "보고됨": 1477, "▁591": 1478, "156": 1479, "부근": 1480, "아군": 1481, "▁231": 1482, "99": 1483, "580": 1484, "작전지역": 1485, "243": 1486, "92": 1487, "57": 1488, "134": 1489, "교전": 1490, "판": 1491, "대대이": 1492, "105": 1493, "349": 1494, "전개": 1495, "추정": 1496, "27°": 1497, "▁311": 1498, "효력": 1499, "90°": 1500, "473": 1501, "내": 1502, "66": 1503, "위치": 1504, "07°": 1505, "984": 1506, "현황": 1507, "▁324": 1508, "▁262": 1509, "/4": 1510, "624": 1511, "373": 1512, "방": 1513, "배치": 1514, "36°": 1515, "연": 1516, "후": 1517, "것": 1518, "송": 1519, "효": 1520, "전": 1521, "노": 1522, "팀": 1523, "체": 1524, "범": 1525, "늘": 1526, "바": 1527, "람": 1528, "민": 1529, "름": 1530, "족": 1531, "윤": 1532, "켓": 1533, "생": 1534, "양": 1535, "흐": 1536, "환": 1537, "항": 1538, "잔": 1539, "귀": 1540, "따": 1541, "F": 1542, "E": 1543, "없": 1544, "압": 1545, "목": 1546, "침": 1547, "괴": 1548, "철": 1549, "절": 1550, "권": 1551, "벽": 1552, "악": 1553, "령": 1554, "망": 1555, "반": 1556, "필": 1557, "원": 1558, "석": 1559, "돌": 1560, "변": 1561, "처": 1562, "능": 1563, "흔": 1564, "류": 1565, "휘": 1566, "록": 1567, "었": 1568, "길": 1569, "타": 1570, "완": 1571, "배": 1572, "북": 1573, "안": 1574, "남": 1575, "리": 1576, "모": 1577, "규": 1578, "뢰": 1579, "주": 1580, "유": 1581, "교": 1582, "아": 1583, "추": 1584, "파": 1585, "통": 1586, "작": 1587, "찰": 1588, "투": 1589, "별": 1590, "식": 1591, "예": 1592, "애": 1593, "청": 1594, "측": 1595, "k": 1596, "평": 1597, "간": 1598, "역": 1599, "확": 1600, "태": 1601, "력": 1602}